{"tensorflowjs_models/helloworld/info":"{\"dateSaved\":\"2023-03-25T00:48:26.074Z\",\"modelTopologyType\":\"JSON\",\"modelTopologyBytes\":1008,\"weightSpecsBytes\":251,\"weightDataBytes\":1132}","tensorflowjs_models/helloworld/weight_specs":"[{\"name\":\"dense_Dense1/kernel\",\"shape\":[10,13],\"dtype\":\"float32\"},{\"name\":\"dense_Dense1/bias\",\"shape\":[13],\"dtype\":\"float32\"},{\"name\":\"dense_Dense2/kernel\",\"shape\":[13,10],\"dtype\":\"float32\"},{\"name\":\"dense_Dense2/bias\",\"shape\":[10],\"dtype\":\"float32\"}]","tensorflowjs_models/helloworld/weight_data":"i0eYPhBaA7+gYZe9KF0Tv2nanby8hAW/gR8yvmrBcz5bns++GBvavt3Mib7Xoou+UV+XvZ+c7L7HS/6+2vt1vtlfCr9GSCK7TECqvmlKLT7I/DS+nIoYPhSITb1wZwo/805pPc6lkL6YBMi+//fdvUxLYT3A4yY+BvcIPWqMuj7M2C4+YdJLPtnJtb7fiDW+Fv1svr36M710ORG+P3/JPjIozT451xM+aduUvvv2KbyGl5a+TQJuvlYC9L4ybOM+ZKzAvgDIt75gWRC/Jtw/Pr4EW74EB16+y9FDPaYj9T3UnhG+oCGovODPc74vCoW9FBASv9QF1b3noM4922ihPpuOsL5it9U99m9Rvh58cT7Us/M9G0fivq1zPD0rLdW+UkbzPSUdEL7F8cw+4fDFPaV1rb4jiRw9TOTGvWN44Tu3viC+cWCxvk8Djb1boDK9eNunvCf+i72ktuE8X8cRvdOTj76WhXa+RjXHvgHlgz7R9AW+/d27PH2laDzVZdy+WSsZuw+UmD0o3GE9Hc9XPNkEtT7h3aG+XfVmPuZ2cb6l4LQ+vqm+vfX64bwwiK2+BLRUPeZmfb6v5p89weUnvkOnRL6YQ0e+yn9vvh7tBz+gsxC/SguOvsz/gT385BY/Z8epvp5Xjz6wu6e+EfutPnwQhL1RVYI+qpUNv7tRCz+Sz5W9RRkFvwAAAAAAAAAAAAAAAAAAAAAAAAAAAAAAAAAAAAAAAAAAAAAAAAAAAAAAAAAAAAAAAAAAAACwVpO+T8OKu2Z8xr3XN5C+Kas1vhGQET4K9pQ9Dcpivqrp4D1TvIi+4sTEvkYRXj5ujPG+oBGDPhtfvr5kq6I+UQAmPiW6lb5Q3Ds8V6yhPZg6k73SiQ2/LYVEPqNPoL2PqXe+h2DyPveWTr1705G+r6vQPafonD4G6wW+MThvvWRO4D5JCKe+/TNzvgX1gT0ZCbk9MNCtvrQlF761p6A9YMC0PrWstruhb6e9KEe0vYfP6j1Ywx2+foO7Pc6vzz5f3rA9Z57wPmABEb9RI5q9YwlEProdLL6z6WO+biHqvQN8cr7GMBM9Dq6hPqNR2j2nO0g9kQqHPgt5AD+2Hdy9Zve2PaCfRj7nCi6+XECsvoV0570X1yE+n32AvjD+Hz5zeO091jXNPv8pZz7aZUG9gX1/PjGetL7aH2+7gd17vrsXCT9v8Ow+DgTPPs0+U76i64u+nOsGPsjhuD6FQSA+NKu/PQDJ4zvWLRU+yBQdPlD8vr7u1RQ8G0AWP2HutDsWqo88aoC2vpEvZL4IUGW+qubhPpjJjzt6jeu91UijPh/iw73ePfU+V1jDPqPyTD01Vwk80xIQv9i35D4xLA6+SXEQPtysmr1687u+gjG7vZFhCT42gqq4PDQIPjEZAz6mpoW+UbtiPRAscD2nJdU+6EJWvrYdwj6kQ6G8KduzPbinzz5a+sy+AAAAAAAAAAAAAAAAAAAAAAAAAAAAAAAAAAAAAAAAAAAAAAAAAAAAAA==","tensorflowjs_models/helloworld/model_topology":"{\"class_name\":\"Sequential\",\"config\":[{\"class_name\":\"Dense\",\"config\":{\"units\":13,\"activation\":\"relu\",\"use_bias\":true,\"kernel_initializer\":{\"class_name\":\"VarianceScaling\",\"config\":{\"scale\":1,\"mode\":\"fan_avg\",\"distribution\":\"normal\",\"seed\":null}},\"bias_initializer\":{\"class_name\":\"Zeros\",\"config\":{}},\"kernel_regularizer\":null,\"bias_regularizer\":null,\"activity_regularizer\":null,\"kernel_constraint\":null,\"bias_constraint\":null,\"name\":\"dense_Dense1\",\"trainable\":true,\"batch_input_shape\":[null,10],\"dtype\":\"float32\"}},{\"class_name\":\"Dense\",\"config\":{\"units\":10,\"activation\":\"softmax\",\"use_bias\":true,\"kernel_initializer\":{\"class_name\":\"VarianceScaling\",\"config\":{\"scale\":1,\"mode\":\"fan_avg\",\"distribution\":\"normal\",\"seed\":null}},\"bias_initializer\":{\"class_name\":\"Zeros\",\"config\":{}},\"kernel_regularizer\":null,\"bias_regularizer\":null,\"activity_regularizer\":null,\"kernel_constraint\":null,\"bias_constraint\":null,\"name\":\"dense_Dense2\",\"trainable\":true}}],\"keras_version\":\"tfjs-layers 0.6.6\",\"backend\":\"tensor_flow.js\"}"}